<pad>	0
<unk>	0
<s>	0
</s>	0
<0x00>	0
<0x01>	0
<0x02>	0
<0x03>	0
<0x04>	0
<0x05>	0
<0x06>	0
<0x07>	0
<0x08>	0
<0x09>	0
<0x0A>	0
<0x0B>	0
<0x0C>	0
<0x0D>	0
<0x0E>	0
<0x0F>	0
<0x10>	0
<0x11>	0
<0x12>	0
<0x13>	0
<0x14>	0
<0x15>	0
<0x16>	0
<0x17>	0
<0x18>	0
<0x19>	0
<0x1A>	0
<0x1B>	0
<0x1C>	0
<0x1D>	0
<0x1E>	0
<0x1F>	0
<0x20>	0
<0x21>	0
<0x22>	0
<0x23>	0
<0x24>	0
<0x25>	0
<0x26>	0
<0x27>	0
<0x28>	0
<0x29>	0
<0x2A>	0
<0x2B>	0
<0x2C>	0
<0x2D>	0
<0x2E>	0
<0x2F>	0
<0x30>	0
<0x31>	0
<0x32>	0
<0x33>	0
<0x34>	0
<0x35>	0
<0x36>	0
<0x37>	0
<0x38>	0
<0x39>	0
<0x3A>	0
<0x3B>	0
<0x3C>	0
<0x3D>	0
<0x3E>	0
<0x3F>	0
<0x40>	0
<0x41>	0
<0x42>	0
<0x43>	0
<0x44>	0
<0x45>	0
<0x46>	0
<0x47>	0
<0x48>	0
<0x49>	0
<0x4A>	0
<0x4B>	0
<0x4C>	0
<0x4D>	0
<0x4E>	0
<0x4F>	0
<0x50>	0
<0x51>	0
<0x52>	0
<0x53>	0
<0x54>	0
<0x55>	0
<0x56>	0
<0x57>	0
<0x58>	0
<0x59>	0
<0x5A>	0
<0x5B>	0
<0x5C>	0
<0x5D>	0
<0x5E>	0
<0x5F>	0
<0x60>	0
<0x61>	0
<0x62>	0
<0x63>	0
<0x64>	0
<0x65>	0
<0x66>	0
<0x67>	0
<0x68>	0
<0x69>	0
<0x6A>	0
<0x6B>	0
<0x6C>	0
<0x6D>	0
<0x6E>	0
<0x6F>	0
<0x70>	0
<0x71>	0
<0x72>	0
<0x73>	0
<0x74>	0
<0x75>	0
<0x76>	0
<0x77>	0
<0x78>	0
<0x79>	0
<0x7A>	0
<0x7B>	0
<0x7C>	0
<0x7D>	0
<0x7E>	0
<0x7F>	0
<0x80>	0
<0x81>	0
<0x82>	0
<0x83>	0
<0x84>	0
<0x85>	0
<0x86>	0
<0x87>	0
<0x88>	0
<0x89>	0
<0x8A>	0
<0x8B>	0
<0x8C>	0
<0x8D>	0
<0x8E>	0
<0x8F>	0
<0x90>	0
<0x91>	0
<0x92>	0
<0x93>	0
<0x94>	0
<0x95>	0
<0x96>	0
<0x97>	0
<0x98>	0
<0x99>	0
<0x9A>	0
<0x9B>	0
<0x9C>	0
<0x9D>	0
<0x9E>	0
<0x9F>	0
<0xA0>	0
<0xA1>	0
<0xA2>	0
<0xA3>	0
<0xA4>	0
<0xA5>	0
<0xA6>	0
<0xA7>	0
<0xA8>	0
<0xA9>	0
<0xAA>	0
<0xAB>	0
<0xAC>	0
<0xAD>	0
<0xAE>	0
<0xAF>	0
<0xB0>	0
<0xB1>	0
<0xB2>	0
<0xB3>	0
<0xB4>	0
<0xB5>	0
<0xB6>	0
<0xB7>	0
<0xB8>	0
<0xB9>	0
<0xBA>	0
<0xBB>	0
<0xBC>	0
<0xBD>	0
<0xBE>	0
<0xBF>	0
<0xC0>	0
<0xC1>	0
<0xC2>	0
<0xC3>	0
<0xC4>	0
<0xC5>	0
<0xC6>	0
<0xC7>	0
<0xC8>	0
<0xC9>	0
<0xCA>	0
<0xCB>	0
<0xCC>	0
<0xCD>	0
<0xCE>	0
<0xCF>	0
<0xD0>	0
<0xD1>	0
<0xD2>	0
<0xD3>	0
<0xD4>	0
<0xD5>	0
<0xD6>	0
<0xD7>	0
<0xD8>	0
<0xD9>	0
<0xDA>	0
<0xDB>	0
<0xDC>	0
<0xDD>	0
<0xDE>	0
<0xDF>	0
<0xE0>	0
<0xE1>	0
<0xE2>	0
<0xE3>	0
<0xE4>	0
<0xE5>	0
<0xE6>	0
<0xE7>	0
<0xE8>	0
<0xE9>	0
<0xEA>	0
<0xEB>	0
<0xEC>	0
<0xED>	0
<0xEE>	0
<0xEF>	0
<0xF0>	0
<0xF1>	0
<0xF2>	0
<0xF3>	0
<0xF4>	0
<0xF5>	0
<0xF6>	0
<0xF7>	0
<0xF8>	0
<0xF9>	0
<0xFA>	0
<0xFB>	0
<0xFC>	0
<0xFD>	0
<0xFE>	0
<0xFF>	0
َّ	-0
َا	-1
ٱل	-2
وَ	-3
نَ	-4
▁ٱل	-5
ُو	-6
لَ	-7
ِي	-8
▁وَ	-9
أَ	-10
ُم	-11
▁م	-12
ِن	-13
ـٰ	-14
عَ	-15
يَ	-16
لَّ	-17
تَ	-18
▁أَ	-19
فَ	-20
▁ٱلْ	-21
ُمْ	-22
مَ	-23
هِ	-24
كَ	-25
رَ	-26
ا۟	-27
▁ب	-28
هُ	-29
لِ	-30
▁إ	-31
▁يَ	-32
ُونَ	-33
ِّ	-34
يْ	-35
ًا	-36
ُوا۟	-37
▁عَ	-38
ِى	-39
ِينَ	-40
▁فَ	-41
قَ	-42
وْ	-43
▁بِ	-44
▁ٱللَّ	-45
ىٰ	-46
▁لَ	-47
سَ	-48
هُمْ	-49
عْ	-50
▁ۚ	-51
مْ	-52
نَّ	-53
لْ	-54
بَ	-55
▁إِ	-56
هَ	-57
▁تَ	-58
رْ	-59
حَ	-60
▁ف	-61
ِنَّ	-62
▁ۖ	-63
كُمْ	-64
ُّ	-65
لَا	-66
مُ	-67
نَا	-68
يُ	-69
جَ	-70
سْ	-71
▁مِن	-72
▁عَلَ	-73
▁ك	-74
رِ	-75
هَا	-76
َّذ	-77
تِ	-78
دَ	-79
نِ	-80
مَا	-81
هُۥ	-82
آء	-83
تُ	-84
خَ	-85
▁فِى	-86
▁يُ	-87
▁مَ	-88
مِ	-89
بْ	-90
حْ	-91
▁بَ	-92
بِ	-93
▁وَٱل	-94
▁رَ	-95
شَ	-96
ءَا	-97
قَا	-98
▁كَ	-99
هُم	-100
َّذِينَ	-101
▁أَن	-102
ذَا	-103
دْ	-104
▁قَ	-105
▁ٱللَّهِ	-106
هِۦ	-107
رَّ	-108
ذَ	-109
رُ	-110
▁ءَا	-111
▁إِنَّ	-112
قُ	-113
▁لِ	-114
لُ	-115
َّا	-116
ِّن	-117
كُم	-118
هِمْ	-119
ـٔ	-120
لَّا	-121
▁إِلَ	-122
تَّ	-123
▁ٱلَّذِينَ	-124
▁مِّن	-125
سِ	-126
▁ٱ	-127
▁مَا	-128
بِّ	-129
مَن	-130
▁ٱللَّهُ	-131
▁عَلَيْ	-132
تْ	-133
إِ	-134
إِنَّ	-135
▁جَ	-136
جْ	-137
نُ	-138
فْ	-139
▁ٱلْأَ	-140
كْ	-141
▁خَ	-142
▁كُ	-143
▁سَ	-144
َـٰ	-145
لِي	-146
▁نَ	-147
▁حَ	-148
كُ	-149
دِ	-150
▁كَا	-151
▁ۗ	-152
فِ	-153
▁وَأَ	-154
▁بِٱل	-155
▁ٱللَّهَ	-156
ئِ	-157
لِّ	-158
قَالَ	-159
▁وَٱلْ	-160
▁شَ	-161
▁لَا	-162
ُوٓ	-163
▁مِ	-164
آءَ	-165
لُوا۟	-166
هْ	-167
ـٰٓ	-168
بُ	-169
رًا	-170
غَ	-171
نْ	-172
مِن	-173
عِ	-174
خْ	-175
▁وَلَ	-176
▁ٱلْمُ	-177
سَّ	-178
نَّا	-179
▁أ	-180
لُونَ	-181
ٰلِ	-182
▁تُ	-183
ُوٓا۟	-184
قْ	-185
▁وَلَا	-186
ؤْ	-187
رْض	-188
▁إِلَّا	-189
ةِ	-190
سْتَ	-191
ةً	-192
رُونَ	-193
أْ	-194
بِي	-195
ذْ	-196
زَ	-197
هُوَ	-198
ذَٰلِ	-199
تُمْ	-200
لَم	-201
▁مِنْ	-202
دُ	-203
مٌ	-204
رٌ	-205
إِن	-206
سُ	-207
▁ٱلسَّ	-208
وَٰ	-209
▁مُّ	-210
▁إِن	-211
▁فِي	-212
صَ	-213
ذَٰلِكَ	-214
▁عَلَىٰ	-215
▁لَّ	-216
▁مُ	-217
شْ	-218
ُمَّ	-219
▁مِنَ	-220
كِ	-221
يْنَ	-222
رُوا۟	-223
فُ	-224
▁وَمَا	-225
▁هَ	-226
حِ	-227
▁ٱلرَّ	-228
صْ	-229
▁رَبِّ	-230
▁مِّ	-231
جِ	-232
عُ	-233
ثَ	-234
ةٍ	-235
قُو	-236
▁مَّ	-237
ؤْمِن	-238
لًا	-239
وْمَ	-240
ضَ	-241
خِ	-242
ةٌ	-243
غْ	-244
▁بِٱلْ	-245
▁كَانَ	-246
▁ٱلْحَ	-247
طَ	-248
ةَ	-249
▁أَوْ	-250
رْضِ	-251
▁ٱلْعَ	-252
ثُمَّ	-253
رِي	-254
▁بَعْ	-255
قِ	-256
هُمُ	-257
مٍ	-258
نُوا۟	-259
▁يَعْ	-260
▁قُ	-261
▁ٱلْمَ	-262
َّـٰ	-263
▁رَب	-264
حِي	-265
دِي	-266
مًا	-267
ىٰٓ	-268
ذِ	-269
بَا	-270
لَّهِ	-271
َّذِى	-272
نِى	-273
وَلَ	-274
▁بِهِۦ	-275
▁وَٱ	-276
حْمَ	-277
▁ٱلسَّمَ	-278
مَآ	-279
مَّا	-280
▁لِّ	-281
▁وَيَ	-282
▁ٱلنَّا	-283
دُو	-284
قَدْ	-285
قِي	-286
لَّهُ	-287
▁مِّنْ	-288
ئِكَ	-289
▁مِّنَ	-290
▁رَّ	-291
لُو	-292
سُو	-293
رِينَ	-294
دًا	-295
تُم	-296
▁ءَامَن	-297
▁ع	-298
آءِ	-299
▁ٱلص	-300
يِّ	-301
ُو۟	-302
▁غَ	-303
▁عَلَى	-304
▁بِمَا	-305
جُ	-306
▁فَٱ	-307
▁كُن	-308
▁تَعْ	-309
دُونَ	-310
▁إِلَيْ	-311
ةُ	-312
▁قَبْ	-313
▁ٱلَّذِى	-314
ًّا	-315
▁أُ	-316
مِي	-317
قَوْ	-318
رَٰ	-319
عُونَ	-320
قَالُوا۟	-321
ضْ	-322
▁هُوَ	-323
كُمُ	-324
▁ذَٰلِكَ	-325
رٍ	-326
▁ثُمَّ	-327
▁قَالَ	-328
حُ	-329
ثْ	-330
▁أَنَّ	-331
▁عَلَيْهِ	-332
▁كَفَ	-333
نَآ	-334
دَّ	-335
▁مَن	-336
رَا	-337
ىْ	-338
▁وَٱللَّهُ	-339
▁ٱلْأَرْضِ	-340
▁فَأَ	-341
آءُ	-342
كَا	-343
صِ	-344
لْنَا	-345
ِّى	-346
▁لَهُمْ	-347
بًا	-348
▁أَمْ	-349
▁ءَامَنُوا۟	-350
عَلَ	-351
ُو۟لَ	-352
رَىٰ	-353
▁كَانُوا۟	-354
صِي	-355
▁فِيهَا	-356
نٍ	-357
▁قَوْ	-358
ءٍ	-359
▁عَذَا	-360
إِذَا	-361
▁لَهُۥ	-362
▁إِلَىٰ	-363
▁وَٱلْأَ	-364
َايَ	-365
▁بَيْنَ	-366
زْ	-367
لِم	-368
ِّي	-369
▁وَرَ	-370
بٌ	-371
قُوا۟	-372
َّيْ	-373
وَٰتِ	-374
▁أَعْ	-375
▁شَىْ	-376
كِتَ	-377
▁جَآءَ	-378
وَٱل	-379
▁ٱلد	-380
زِ	-381
تٍ	-382
وٰ	-383
لٍ	-384
▁وَمَن	-385
▁عِن	-386
▁ظ	-387
ِنَا	-388
▁ءَايَ	-389
▁شَىْءٍ	-390
▁عِ	-391
ِىَ	-392
آئِ	-393
لَمُ	-394
▁عَنْ	-395
لَمُونَ	-396
▁رَبَّ	-397
زِي	-398
خُ	-399
▁كَفَرُوا۟	-400
يُّ	-401
▁صَ	-402
َاخِ	-403
▁إِذَا	-404
▁إِلَى	-405
نُو	-406
يَا	-407
▁لَكُمْ	-408
▁ٱلْكِتَ	-409
ذَّ	-410
إِذْ	-411
وَأَ	-412
▁عَن	-413
كُونَ	-414
▁ٱلرَّحْمَ	-415
أْت	-416
ذِّ	-417
رُو	-418
قِينَ	-419
نًا	-420
بُوا۟	-421
▁خَلَ	-422
كِي	-423
يُو	-424
قُونَ	-425
▁مَّا	-426
▁ٱلش	-427
▁خَيْ	-428
لِيَ	-429
مَّ	-430
قُلْ	-431
وْا۟	-432
▁نُ	-433
لِيمٌ	-434
▁كُنتُمْ	-435
وْنَ	-436
دُوا۟	-437
بٍ	-438
فُو	-439
يُّهَا	-440
ؤُ	-441
طِ	-442
لٌ	-443
عِي	-444
َّلَ	-445
▁يَوْمَ	-446
▁ٱلرَّحِي	-447
ؤْمِنِينَ	-448
▁بِأَ	-449
▁ٱلْبَ	-450
طْ	-451
هَآ	-452
▁هُمْ	-453
أَيُّهَا	-454
زُ	-455
ُوسَ	-456
▁وَتَ	-457
▁وَعَ	-458
كَّ	-459
هُنَّ	-460
مَلُونَ	-461
▁عَلَيْهِمْ	-462
دٌ	-463
▁ص	-464
دُونِ	-465
▁عِندَ	-466
▁بِٱللَّهِ	-467
لَىٰ	-468
هُۥٓ	-469
دِينَ	-470
لِهِۦ	-471
▁أَهْ	-472
▁ٱلْكَ	-473
▁وَهُوَ	-474
هِي	-475
لُوٓا۟	-476
▁فَإِنَّ	-477
دٍ	-478
شِ	-479
يْنِ	-480
شَآءُ	-481
▁سَبِي	-482
▁نَّ	-483
عُوا۟	-484
==	-485
ٌّ	-486
▁رَبُّ	-487
ِيَ	-488
▁سُ	-489
عَلَّ	-490
ذُ	-491
سْمِ	-492
يَوْمَ	-493
▁مِنۢ	-494
▁دُونِ	-495
▁فِيهِ	-496
ظُ	-497
رِّ	-498
لَمْ	-499
بُونَ	-500
ؤْمِنُونَ	-501
كُو	-502
▁فَلَا	-503
▁كُلِّ	-504
وُ	-505
قِّ	-506
▁وَجَ	-507
تِى	-508
▁مَعَ	-509
▁حَتَّ	-510
▁يَسْتَ	-511
نٌ	-512
وَا	-513
رْسَ	-514
▁وَإِن	-515
▁بَعْدِ	-516
غْفِ	-517
▁يَتَ	-518
▁ٱلنَّ	-519
▁رَّبِّ	-520
شُ	-521
▁فِ	-522
▁ٱلظ	-523
كَانَ	-524
▁إِنَّهُۥ	-525
خَا	-526
دَا	-527
سَا	-528
لُّ	-529
▁ٱلدُّ	-530
▁عَلَيْكُمْ	-531
ئْ	-532
▁ضَ	-533
▁يَن	-534
▁وَيُ	-535
▁ٱتَّ	-536
َاخِرَ	-537
وَمَا	-538
▁وَأَن	-539
أُ	-540
عًا	-541
▁ٱلرَّحِيمِ	-542
ُّونَ	-543
▁دَ	-544
رْضَ	-545
لِمِينَ	-546
▁إِنِّى	-547
وَّ	-548
مِنَ	-549
▁قَبْلِ	-550
▁ٱلدُّنْ	-551
ُّو	-552
لَّآ	-553
▁أَجْ	-554
▁أَنفُ	-555
أُو۟لَ	-556
▁ٱلْجَ	-557
▁طَ	-558
شْرِ	-559
ضُ	-560
جَا	-561
رِى	-562
طِي	-563
عُو	-564
فُونَ	-565
بِسْمِ	-566
ضِ	-567
ظِي	-568
لِح	-569
▁ٱلدُّنْيَا	-570
غَيْ	-571
▁يَوْ	-572
▁مَآ	-573
وَلَقَدْ	-574
▁يَشَآءُ	-575
ـَٔ	-576
لِينَ	-577
▁وَهُمْ	-578
فَأَ	-579
▁قَدْ	-580
▁وَإِ	-581
▁وَٱلْأَرْضِ	-582
▁قُلْ	-583
ىَ	-584
هُمَا	-585
▁لَّا	-586
لَمَّا	-587
ُّوا۟	-588
▁نَفْ	-589
قَوْمِ	-590
▁يَقُو	-591
▁وَإِنَّ	-592
جُو	-593
فِى	-594
هِم	-595
▁أَكْ	-596
▁إِذْ	-597
▁تَحْ	-598
▁ٱلْخَ	-599
بَّ	-600
هِۦٓ	-601
▁ٱلْقُ	-602
تَا	-603
ثِي	-604
عَا	-605
▁لِلْ	-606
▁قُلُو	-607
▁عَلِيمٌ	-608
▁لِلَّهِ	-609
دِى	-610
▁ظَ	-611
عْمَ	-612
لْنَ	-613
▁وَلِ	-614
▁قَالُوا۟	-615
يِّنَ	-616
▁غَيْ	-617
▁ٱلْفَ	-618
وَإِذَا	-619
لَيْ	-620
▁أُو۟لَ	-621
ثُ	-622
ًۢ	-623
دَىٰ	-624
▁وَنَ	-625
▁ٱسْتَ	-626
قَالُوٓا۟	-627
ذُو	-628
▁فَتَ	-629
▁مُوسَ	-630
َ	-631
▁	-632
ِ	-633
ل	-634
ْ	-635
ُ	-636
ن	-637
م	-638
و	-639
ّ	-640
ا	-641
ي	-642
ه	-643
ٱ	-644
ر	-645
ب	-646
ت	-647
ك	-648
ٰ	-649
ع	-650
أ	-651
ف	-652
ق	-653
ـ	-654
ى	-655
س	-656
د	-657
إ	-658
ذ	-659
ح	-660
۟	-661
ً	-662
ج	-663
آ	-664
ء	-665
ٍ	-666
ٌ	-667
خ	-668
ٓ	-669
ة	-670
ش	-671
ص	-672
ۚ	-673
ض	-674
ۖ	-675
ز	-676
ث	-677
ط	-678
ۥ	-679
غ	-680
ۦ	-681
ئ	-682
ظ	-683
ٔ	-684
ؤ	-685
ۗ	-686
ۢ	-687
=	-688
ۭ	-689
ۙ	-690
۠	-691
e	-692
t	-693
i	-694
a	-695
n	-696
o	-697
ۧ	-698
s	-699
r	-700
l	-701
#	-702
c	-703
d	-704
ۘ	-705
p	-706
u	-707
h	-708
۩	-709
T	-710
b	-711
ۛ	-712
y	-713
f	-714
O	-715
m	-716
.	-717
C	-718
E	-719
P	-720
g	-721
ۜ	-722
,	-723
v	-724
x	-725
z	-726
A	-727
I	-728
L	-729
N	-730
S	-731
-	-732
/	-733
0	-734
:	-735
G	-736
H	-737
R	-738
k	-739
(	-740
)	-741
2	-742
Q	-743
j	-744
1	-745
D	-746
M	-747
U	-748
V	-749
3	-750
6	-751
7	-752
B	-753
F	-754
K	-755
W	-756
Y	-757
w	-758
ۣ	-759
ۨ	-760
۪	-761
۫	-762
۬	-763
